unsigned char converted_model_tflite[] = {
  0x08, 0x00, 0x00, 0x00, 0x54, 0x46, 0x4c, 0x33, 0x62, 0xff, 0xff, 0xff,
  0x03, 0x00, 0x00, 0x00, 0x10, 0x00, 0x00, 0x00, 0x24, 0x00, 0x00, 0x00,
  0x78, 0x00, 0x00, 0x00, 0x24, 0x00, 0x00, 0x00, 0x05, 0x00, 0x00, 0x00,
  0x5c, 0x05, 0x00, 0x00, 0x98, 0x04, 0x00, 0x00, 0xc8, 0x02, 0x00, 0x00,
  0x40, 0x02, 0x00, 0x00, 0x44, 0x01, 0x00, 0x00, 0x01, 0x00, 0x00, 0x00,
  0x78, 0x00, 0x00, 0x00, 0x13, 0x00, 0x00, 0x00, 0x04, 0x12, 0x00, 0x00,
  0x00, 0x12, 0x00, 0x00, 0x38, 0x11, 0x00, 0x00, 0x2c, 0x10, 0x00, 0x00,
  0xc0, 0x0f, 0x00, 0x00, 0xe8, 0x0c, 0x00, 0x00, 0xb4, 0x0a, 0x00, 0x00,
  0xa4, 0x08, 0x00, 0x00, 0x04, 0x06, 0x00, 0x00, 0xb0, 0x05, 0x00, 0x00,
  0x5c, 0x05, 0x00, 0x00, 0xd8, 0x11, 0x00, 0x00, 0xd4, 0x11, 0x00, 0x00,
  0xd0, 0x11, 0x00, 0x00, 0xcc, 0x11, 0x00, 0x00, 0xc8, 0x11, 0x00, 0x00,
  0xc4, 0x11, 0x00, 0x00, 0xc0, 0x11, 0x00, 0x00, 0xbc, 0x11, 0x00, 0x00,
  0x0f, 0x00, 0x00, 0x00, 0x4d, 0x4c, 0x49, 0x52, 0x20, 0x43, 0x6f, 0x6e,
  0x76, 0x65, 0x72, 0x74, 0x65, 0x64, 0x2e, 0x00, 0x00, 0x00, 0x0e, 0x00,
  0x18, 0x00, 0x04, 0x00, 0x08, 0x00, 0x0c, 0x00, 0x10, 0x00, 0x14, 0x00,
  0x0e, 0x00, 0x00, 0x00, 0x14, 0x00, 0x00, 0x00, 0x5c, 0x00, 0x00, 0x00,
  0x60, 0x00, 0x00, 0x00, 0x64, 0x00, 0x00, 0x00, 0x84, 0x00, 0x00, 0x00,
  0x12, 0x00, 0x00, 0x00, 0x30, 0x11, 0x00, 0x00, 0xd4, 0x10, 0x00, 0x00,
  0x50, 0x10, 0x00, 0x00, 0x50, 0x0f, 0x00, 0x00, 0xec, 0x0e, 0x00, 0x00,
  0x18, 0x0c, 0x00, 0x00, 0xd8, 0x09, 0x00, 0x00, 0xc8, 0x07, 0x00, 0x00,
  0x44, 0x05, 0x00, 0x00, 0xf0, 0x04, 0x00, 0x00, 0x94, 0x04, 0x00, 0x00,
  0xd0, 0x03, 0x00, 0x00, 0x20, 0x03, 0x00, 0x00, 0x90, 0x02, 0x00, 0x00,
  0xf8, 0x01, 0x00, 0x00, 0x70, 0x01, 0x00, 0x00, 0xdc, 0x00, 0x00, 0x00,
  0x70, 0x00, 0x00, 0x00, 0x01, 0x00, 0x00, 0x00, 0x00, 0x00, 0x00, 0x00,
  0x01, 0x00, 0x00, 0x00, 0x11, 0x00, 0x00, 0x00, 0x08, 0x00, 0x00, 0x00,
  0x00, 0x04, 0x00, 0x00, 0x40, 0x03, 0x00, 0x00, 0xb0, 0x02, 0x00, 0x00,
  0x1c, 0x02, 0x00, 0x00, 0x94, 0x01, 0x00, 0x00, 0xf0, 0x00, 0x00, 0x00,
  0x74, 0x00, 0x00, 0x00, 0x10, 0x00, 0x00, 0x00, 0x04, 0x00, 0x00, 0x00,
  0x6d, 0x61, 0x69, 0x6e, 0x00, 0x00, 0x00, 0x00, 0x92, 0xfe, 0xff, 0xff,
  0x04, 0x00, 0x00, 0x00, 0x10, 0x00, 0x00, 0x00, 0x04, 0x00, 0x00, 0x00,
  0x01, 0x00, 0x00, 0x00, 0x11, 0x00, 0x00, 0x00, 0x01, 0x00, 0x00, 0x00,
  0x10, 0x00, 0x00, 0x00, 0x02, 0xfc, 0xff, 0xff, 0x00, 0x00, 0x00, 0x0e,
  0x01, 0x00, 0x00, 0x00, 0x92, 0xef, 0xff, 0xff, 0x10, 0x00, 0x00, 0x00,
  0x12, 0x00, 0x00, 0x00, 0x14, 0x00, 0x00, 0x00, 0x20, 0x00, 0x00, 0x00,
  0x02, 0x00, 0x00, 0x00, 0x01, 0x00, 0x00, 0x00, 0x03, 0x00, 0x00, 0x00,
  0x08, 0x00, 0x00, 0x00, 0x49, 0x64, 0x65, 0x6e, 0x74, 0x69, 0x74, 0x79,
  0x00, 0x00, 0x00, 0x00, 0x70, 0xef, 0xff, 0xff, 0x72, 0xfe, 0xff, 0xff,
  0x00, 0x00, 0x00, 0x08, 0x03, 0x00, 0x00, 0x00, 0x18, 0x00, 0x00, 0x00,
  0x0c, 0x00, 0x00, 0x00, 0x04, 0x00, 0x00, 0x00, 0x8c, 0xef, 0xff, 0xff,
  0x01, 0x00, 0x00, 0x00, 0x10, 0x00, 0x00, 0x00, 0x03, 0x00, 0x00, 0x00,
  0x0f, 0x00, 0x00, 0x00, 0x05, 0x00, 0x00, 0x00, 0x03, 0x00, 0x00, 0x00,
  0xfa, 0xef, 0xff, 0xff, 0x10, 0x00, 0x00, 0x00, 0x11, 0x00, 0x00, 0x00,
  0x14, 0x00, 0x00, 0x00, 0x30, 0x00, 0x00, 0x00, 0x02, 0x00, 0x00, 0x00,
  0x01, 0x00, 0x00, 0x00, 0x03, 0x00, 0x00, 0x00, 0x19, 0x00, 0x00, 0x00,
  0x73, 0x65, 0x71, 0x75, 0x65, 0x6e, 0x74, 0x69, 0x61, 0x6c, 0x2f, 0x6f,
  0x75, 0x74, 0x70, 0x75, 0x74, 0x2f, 0x42, 0x69, 0x61, 0x73, 0x41, 0x64,
  0x64, 0x00, 0x00, 0x00, 0xe8, 0xef, 0xff, 0xff, 0xce, 0xfd, 0xff, 0xff,
  0x00, 0x00, 0x00, 0x08, 0x03, 0x00, 0x00, 0x00, 0x24, 0x00, 0x00, 0x00,
  0x18, 0x00, 0x00, 0x00, 0x0c, 0x00, 0x00, 0x00, 0x00, 0x00, 0x06, 0x00,
  0x08, 0x00, 0x07, 0x00, 0x06, 0x00, 0x00, 0x00, 0x00, 0x00, 0x00, 0x01,
  0x01, 0x00, 0x00, 0x00, 0x0f, 0x00, 0x00, 0x00, 0x03, 0x00, 0x00, 0x00,
  0x0e, 0x00, 0x00, 0x00, 0x04, 0x00, 0x00, 0x00, 0x02, 0x00, 0x00, 0x00,
  0xfa, 0xfc, 0xff, 0xff, 0x00, 0x00, 0x00, 0x09, 0x01, 0x00, 0x00, 0x00,
  0x8a, 0xf0, 0xff, 0xff, 0x10, 0x00, 0x00, 0x00, 0x10, 0x00, 0x00, 0x00,
  0x14, 0x00, 0x00, 0x00, 0x34, 0x00, 0x00, 0x00, 0x02, 0x00, 0x00, 0x00,
  0x01, 0x00, 0x00, 0x00, 0x28, 0x00, 0x00, 0x00, 0x1d, 0x00, 0x00, 0x00,
  0x73, 0x65, 0x71, 0x75, 0x65, 0x6e, 0x74, 0x69, 0x61, 0x6c, 0x2f, 0x68,
  0x69, 0x64, 0x64, 0x65, 0x6e, 0x5f, 0x6c, 0x61, 0x79, 0x65, 0x72, 0x31,
  0x2f, 0x52, 0x65, 0x6c, 0x75, 0x00, 0x00, 0x00, 0xd8, 0xf0, 0xff, 0xff,
  0x00, 0x00, 0x0a, 0x00, 0x10, 0x00, 0x04, 0x00, 0x08, 0x00, 0x0c, 0x00,
  0x0a, 0x00, 0x00, 0x00, 0x02, 0x00, 0x00, 0x00, 0x10, 0x00, 0x00, 0x00,
  0x04, 0x00, 0x00, 0x00, 0x01, 0x00, 0x00, 0x00, 0x0e, 0x00, 0x00, 0x00,
  0x02, 0x00, 0x00, 0x00, 0x0d, 0x00, 0x00, 0x00, 0x01, 0x00, 0x00, 0x00,
  0x7e, 0xfd, 0xff, 0xff, 0x00, 0x00, 0x00, 0x16, 0x01, 0x00, 0x00, 0x00,
  0x0e, 0xf1, 0xff, 0xff, 0x10, 0x00, 0x00, 0x00, 0x0f, 0x00, 0x00, 0x00,
  0x14, 0x00, 0x00, 0x00, 0x30, 0x00, 0x00, 0x00, 0x02, 0x00, 0x00, 0x00,
  0x01, 0x00, 0x00, 0x00, 0x04, 0x00, 0x00, 0x00, 0x1a, 0x00, 0x00, 0x00,
  0x73, 0x65, 0x71, 0x75, 0x65, 0x6e, 0x74, 0x69, 0x61, 0x6c, 0x2f, 0x66,
  0x6c, 0x61, 0x74, 0x74, 0x65, 0x6e, 0x2f, 0x52, 0x65, 0x73, 0x68, 0x61,
  0x70, 0x65, 0x00, 0x00, 0x58, 0xf1, 0xff, 0xff, 0x00, 0x00, 0x0e, 0x00,
  0x18, 0x00, 0x08, 0x00, 0x0c, 0x00, 0x10, 0x00, 0x07, 0x00, 0x14, 0x00,
  0x0e, 0x00, 0x00, 0x00, 0x00, 0x00, 0x00, 0x05, 0x01, 0x00, 0x00, 0x00,
  0x2c, 0x00, 0x00, 0x00, 0x20, 0x00, 0x00, 0x00, 0x04, 0x00, 0x00, 0x00,
  0xe2, 0xfe, 0xff, 0xff, 0x01, 0x00, 0x00, 0x00, 0x01, 0x00, 0x00, 0x00,
  0x01, 0x00, 0x00, 0x00, 0x01, 0x00, 0x00, 0x00, 0x00, 0x00, 0x00, 0x01,
  0x01, 0x00, 0x00, 0x00, 0x0d, 0x00, 0x00, 0x00, 0x01, 0x00, 0x00, 0x00,
  0x0c, 0x00, 0x00, 0x00, 0xa2, 0xf1, 0xff, 0xff, 0x10, 0x00, 0x00, 0x00,
  0x0e, 0x00, 0x00, 0x00, 0x1c, 0x00, 0x00, 0x00, 0x3c, 0x00, 0x00, 0x00,
  0x04, 0x00, 0x00, 0x00, 0x01, 0x00, 0x00, 0x00, 0x01, 0x00, 0x00, 0x00,
  0x01, 0x00, 0x00, 0x00, 0x04, 0x00, 0x00, 0x00, 0x1f, 0x00, 0x00, 0x00,
  0x73, 0x65, 0x71, 0x75, 0x65, 0x6e, 0x74, 0x69, 0x61, 0x6c, 0x2f, 0x6d,
  0x61, 0x78, 0x5f, 0x70, 0x6f, 0x6f, 0x6c, 0x69, 0x6e, 0x67, 0x32, 0x2f,
  0x4d, 0x61, 0x78, 0x50, 0x6f, 0x6f, 0x6c, 0x00, 0x9c, 0xf1, 0xff, 0xff,
  0xc6, 0xfe, 0xff, 0xff, 0x00, 0x00, 0x00, 0x01, 0x24, 0x00, 0x00, 0x00,
  0x18, 0x00, 0x00, 0x00, 0x04, 0x00, 0x00, 0x00, 0xb8, 0xfe, 0xff, 0xff,
  0x01, 0x00, 0x00, 0x00, 0x01, 0x00, 0x00, 0x00, 0x00, 0x00, 0x00, 0x01,
  0x01, 0x00, 0x00, 0x00, 0x0c, 0x00, 0x00, 0x00, 0x03, 0x00, 0x00, 0x00,
  0x0b, 0x00, 0x00, 0x00, 0x07, 0x00, 0x00, 0x00, 0x09, 0x00, 0x00, 0x00,
  0x2e, 0xf2, 0xff, 0xff, 0x10, 0x00, 0x00, 0x00, 0x0d, 0x00, 0x00, 0x00,
  0x1c, 0x00, 0x00, 0x00, 0x2c, 0x00, 0x00, 0x00, 0x04, 0x00, 0x00, 0x00,
  0x01, 0x00, 0x00, 0x00, 0x01, 0x00, 0x00, 0x00, 0x01, 0x00, 0x00, 0x00,
  0x04, 0x00, 0x00, 0x00, 0x0c, 0x00, 0x00, 0x00, 0x74, 0x66, 0x6c, 0x2e,
  0x63, 0x6f, 0x6e, 0x76, 0x5f, 0x32, 0x64, 0x31, 0x00, 0x00, 0x00, 0x00,
  0x74, 0xf2, 0xff, 0xff, 0x00, 0x00, 0x0e, 0x00, 0x1a, 0x00, 0x08, 0x00,
  0x0c, 0x00, 0x10, 0x00, 0x07, 0x00, 0x14, 0x00, 0x0e, 0x00, 0x00, 0x00,
  0x00, 0x00, 0x00, 0x05, 0x01, 0x00, 0x00, 0x00, 0x3c, 0x00, 0x00, 0x00,
  0x30, 0x00, 0x00, 0x00, 0x14, 0x00, 0x00, 0x00, 0x00, 0x00, 0x0e, 0x00,
  0x18, 0x00, 0x17, 0x00, 0x10, 0x00, 0x0c, 0x00, 0x08, 0x00, 0x04, 0x00,
  0x0e, 0x00, 0x00, 0x00, 0x02, 0x00, 0x00, 0x00, 0x02, 0x00, 0x00, 0x00,
  0x02, 0x00, 0x00, 0x00, 0x02, 0x00, 0x00, 0x00, 0x00, 0x00, 0x00, 0x01,
  0x01, 0x00, 0x00, 0x00, 0x0b, 0x00, 0x00, 0x00, 0x01, 0x00, 0x00, 0x00,
  0x0a, 0x00, 0x00, 0x00, 0x4a, 0xff, 0xff, 0xff, 0x00, 0x00, 0x00, 0x11,
  0x01, 0x00, 0x00, 0x00, 0xda, 0xf2, 0xff, 0xff, 0x10, 0x00, 0x00, 0x00,
  0x0c, 0x00, 0x00, 0x00, 0x1c, 0x00, 0x00, 0x00, 0x3c, 0x00, 0x00, 0x00,
  0x04, 0x00, 0x00, 0x00, 0x01, 0x00, 0x00, 0x00, 0x01, 0x00, 0x00, 0x00,
  0x01, 0x00, 0x00, 0x00, 0x04, 0x00, 0x00, 0x00, 0x1f, 0x00, 0x00, 0x00,
  0x73, 0x65, 0x71, 0x75, 0x65, 0x6e, 0x74, 0x69, 0x61, 0x6c, 0x2f, 0x6d,
  0x61, 0x78, 0x5f, 0x70, 0x6f, 0x6f, 0x6c, 0x69, 0x6e, 0x67, 0x31, 0x2f,
  0x4d, 0x61, 0x78, 0x50, 0x6f, 0x6f, 0x6c, 0x00, 0x30, 0xf3, 0xff, 0xff,
  0x00, 0x00, 0x0e, 0x00, 0x14, 0x00, 0x00, 0x00, 0x08, 0x00, 0x0c, 0x00,
  0x07, 0x00, 0x10, 0x00, 0x0e, 0x00, 0x00, 0x00, 0x00, 0x00, 0x00, 0x01,
  0x30, 0x00, 0x00, 0x00, 0x24, 0x00, 0x00, 0x00, 0x10, 0x00, 0x00, 0x00,
  0x0c, 0x00, 0x10, 0x00, 0x00, 0x00, 0x04, 0x00, 0x08, 0x00, 0x0f, 0x00,
  0x0c, 0x00, 0x00, 0x00, 0x01, 0x00, 0x00, 0x00, 0x01, 0x00, 0x00, 0x00,
  0x00, 0x00, 0x00, 0x01, 0x01, 0x00, 0x00, 0x00, 0x0a, 0x00, 0x00, 0x00,
  0x03, 0x00, 0x00, 0x00, 0x00, 0x00, 0x00, 0x00, 0x06, 0x00, 0x00, 0x00,
  0x08, 0x00, 0x00, 0x00, 0x00, 0x00, 0x0a, 0x00, 0x0c, 0x00, 0x07, 0x00,
  0x00, 0x00, 0x08, 0x00, 0x0a, 0x00, 0x00, 0x00, 0x00, 0x00, 0x00, 0x03,
  0x01, 0x00, 0x00, 0x00, 0x9a, 0xf3, 0xff, 0xff, 0x10, 0x00, 0x00, 0x00,
  0x0b, 0x00, 0x00, 0x00, 0x1c, 0x00, 0x00, 0x00, 0x28, 0x00, 0x00, 0x00,
  0x04, 0x00, 0x00, 0x00, 0x01, 0x00, 0x00, 0x00, 0x02, 0x00, 0x00, 0x00,
  0x02, 0x00, 0x00, 0x00, 0x04, 0x00, 0x00, 0x00, 0x0b, 0x00, 0x00, 0x00,
  0x74, 0x66, 0x6c, 0x2e, 0x63, 0x6f, 0x6e, 0x76, 0x5f, 0x32, 0x64, 0x00,
  0x80, 0xf3, 0xff, 0xff, 0x4a, 0xf4, 0xff, 0xff, 0x04, 0x00, 0x00, 0x00,
  0x10, 0x00, 0x00, 0x00, 0x66, 0x0a, 0x8a, 0x3d, 0x05, 0x30, 0x2d, 0xbb,
  0x1e, 0x61, 0x81, 0xba, 0x54, 0xcd, 0x51, 0xbc, 0xf2, 0xf3, 0xff, 0xff,
  0x10, 0x00, 0x00, 0x00, 0x0a, 0x00, 0x00, 0x00, 0x10, 0x00, 0x00, 0x00,
  0x20, 0x00, 0x00, 0x00, 0x01, 0x00, 0x00, 0x00, 0x04, 0x00, 0x00, 0x00,
  0x0d, 0x00, 0x00, 0x00, 0x73, 0x74, 0x64, 0x2e, 0x63, 0x6f, 0x6e, 0x73,
  0x74, 0x61, 0x6e, 0x74, 0x31, 0x00, 0x00, 0x00, 0xd0, 0xf3, 0xff, 0xff,
  0x9a, 0xf4, 0xff, 0xff, 0x04, 0x00, 0x00, 0x00, 0x10, 0x00, 0x00, 0x00,
  0x0c, 0x4f, 0xcb, 0x3d, 0x7b, 0xac, 0x20, 0x3e, 0x93, 0x63, 0xc0, 0x3d,
  0xcb, 0xe5, 0xe9, 0x3d, 0x42, 0xf4, 0xff, 0xff, 0x10, 0x00, 0x00, 0x00,
  0x09, 0x00, 0x00, 0x00, 0x10, 0x00, 0x00, 0x00, 0x20, 0x00, 0x00, 0x00,
  0x01, 0x00, 0x00, 0x00, 0x04, 0x00, 0x00, 0x00, 0x0c, 0x00, 0x00, 0x00,
  0x73, 0x74, 0x64, 0x2e, 0x63, 0x6f, 0x6e, 0x73, 0x74, 0x61, 0x6e, 0x74,
  0x00, 0x00, 0x00, 0x00, 0x20, 0xf4, 0xff, 0xff, 0xea, 0xf4, 0xff, 0xff,
  0x04, 0x00, 0x00, 0x00, 0x40, 0x02, 0x00, 0x00, 0x60, 0x40, 0x60, 0x09,
  0x85, 0x94, 0xc7, 0x09, 0x89, 0x06, 0x98, 0x87, 0x7b, 0x7e, 0x87, 0x08,
  0x86, 0x32, 0x4e, 0x09, 0xb4, 0x7f, 0x44, 0x09, 0x53, 0x42, 0x49, 0x88,
  0x8e, 0x85, 0x82, 0x89, 0xa0, 0x07, 0xd7, 0x06, 0x8e, 0x6d, 0xd0, 0x09,
  0x55, 0xe8, 0xca, 0x09, 0x64, 0x44, 0x78, 0x09, 0x58, 0x69, 0x6b, 0x89,
  0x09, 0x6c, 0xac, 0x09, 0xef, 0x90, 0xea, 0x09, 0x2f, 0x9a, 0xbd, 0x09,
  0xe0, 0xce, 0xc7, 0x09, 0x00, 0x56, 0xc0, 0x89, 0xc0, 0x9d, 0xc3, 0x89,
  0x60, 0xa7, 0xbf, 0x09, 0xdd, 0x8e, 0xbd, 0x89, 0xa3, 0x4a, 0xe0, 0x89,
  0x87, 0x59, 0xdd, 0x09, 0x67, 0xfc, 0xdf, 0x09, 0xb3, 0x23, 0x29, 0x09,
  0x50, 0xa3, 0xb1, 0x08, 0x9c, 0xe1, 0x1f, 0x88, 0x59, 0x2f, 0xe4, 0x09,
  0x2a, 0x14, 0x9b, 0x89, 0xdd, 0xb7, 0x53, 0x09, 0xe4, 0xc4, 0xcf, 0x88,
  0x98, 0x8e, 0xad, 0x09, 0x23, 0x8c, 0xa2, 0x89, 0xba, 0x38, 0x9e, 0x09,
  0x1e, 0x4b, 0x8b, 0x09, 0x50, 0x04, 0xbd, 0x89, 0xbe, 0x5f, 0x2e, 0x88,
  0x3e, 0x54, 0x71, 0x89, 0x36, 0x9b, 0xc0, 0x89, 0x97, 0x8f, 0x37, 0x09,
  0xfd, 0x2e, 0xcb, 0x89, 0xf0, 0xde, 0xc7, 0x89, 0x05, 0x7d, 0xbf, 0x89,
  0xdb, 0x90, 0x96, 0x89, 0x34, 0xfc, 0xf2, 0x09, 0x42, 0x59, 0x7d, 0x09,
  0xd6, 0x26, 0x24, 0x88, 0xb7, 0xf1, 0x8c, 0x09, 0x67, 0xcc, 0xb7, 0x09,
  0x15, 0x28, 0x96, 0x09, 0x10, 0xd3, 0x20, 0x88, 0x10, 0x21, 0xa2, 0x09,
  0x98, 0x78, 0x4c, 0x09, 0x3e, 0x8e, 0x37, 0x08, 0xfb, 0x4d, 0x30, 0x09,
  0x06, 0x7d, 0x60, 0x89, 0xd0, 0x6d, 0xd7, 0x88, 0x8d, 0x3a, 0xcd, 0x09,
  0xb2, 0xb1, 0x92, 0x88, 0x30, 0xb1, 0x25, 0x89, 0x43, 0xbd, 0xb6, 0x89,
  0x1c, 0x14, 0xd6, 0x09, 0x56, 0xeb, 0x4d, 0x07, 0x19, 0x3f, 0x8c, 0x88,
  0x1e, 0x18, 0xef, 0x09, 0xb7, 0xa2, 0x77, 0x89, 0x15, 0x9b, 0xa4, 0x09,
  0xb8, 0xa7, 0x72, 0x09, 0xf4, 0x86, 0x13, 0x87, 0x4a, 0x06, 0x8a, 0x08,
  0x37, 0x5b, 0xd9, 0x89, 0x0b, 0x2a, 0x65, 0x89, 0x3a, 0xa8, 0x9a, 0x08,
  0x7c, 0x67, 0x9f, 0x89, 0xd4, 0xca, 0xe8, 0x88, 0x0f, 0x9d, 0x9c, 0x09,
  0x50, 0x97, 0xd5, 0x89, 0x2e, 0x06, 0xe1, 0x09, 0x60, 0x9c, 0xc7, 0x87,
  0x01, 0x1c, 0xee, 0x89, 0x44, 0x56, 0x74, 0x89, 0xc6, 0xeb, 0x5a, 0x09,
  0x96, 0x24, 0x48, 0x09, 0x40, 0xcc, 0xae, 0x89, 0x66, 0x17, 0x7b, 0x89,
  0x0f, 0x3f, 0xb9, 0x09, 0xaa, 0x6e, 0xd2, 0x88, 0xf2, 0x67, 0x60, 0x89,
  0x16, 0xfb, 0xdd, 0x09, 0x1a, 0x40, 0xd9, 0x88, 0xbc, 0x11, 0xe3, 0x09,
  0xbf, 0xd1, 0x53, 0x09, 0xac, 0x19, 0x9b, 0x08, 0xa2, 0xc1, 0xc7, 0x89,
  0x1e, 0x01, 0x96, 0x89, 0xea, 0xbc, 0xc7, 0x88, 0xdb, 0x64, 0x7a, 0x89,
  0xf2, 0x76, 0xdb, 0x08, 0xd3, 0xfc, 0x3b, 0x88, 0xd8, 0x87, 0xb5, 0x09,
  0x1c, 0x94, 0x17, 0x88, 0x8c, 0xf3, 0xb8, 0x89, 0x47, 0x6d, 0xc0, 0x89,
  0x5c, 0xc0, 0xcc, 0x09, 0xa4, 0xec, 0x03, 0x89, 0x9f, 0x3e, 0xba, 0x08,
  0xc2, 0x4e, 0xe3, 0x89, 0xcf, 0xc2, 0x95, 0x09, 0x24, 0x30, 0x3f, 0x89,
  0xb4, 0x0f, 0xc3, 0x88, 0xcb, 0xd1, 0x88, 0x89, 0x4a, 0xda, 0x3b, 0x89,
  0x70, 0x63, 0x4e, 0x89, 0x9c, 0x23, 0xe9, 0x89, 0xe8, 0x13, 0x7a, 0x08,
  0xfc, 0xc6, 0x02, 0x09, 0xd1, 0xe5, 0xa0, 0x89, 0x6f, 0x55, 0x31, 0x89,
  0x2e, 0x0b, 0x1f, 0x89, 0x68, 0xc6, 0x89, 0x89, 0x20, 0x6e, 0x85, 0x09,
  0xff, 0x87, 0xd5, 0x89, 0xa0, 0x35, 0x02, 0x89, 0x56, 0x76, 0xa1, 0x09,
  0xdb, 0x3e, 0x4e, 0x09, 0x00, 0x8e, 0x97, 0x08, 0xf3, 0xc7, 0x15, 0x09,
  0xa6, 0x7c, 0x22, 0x89, 0x32, 0xdf, 0xe9, 0x07, 0x6e, 0x9a, 0xef, 0x88,
  0xd4, 0x42, 0x8d, 0x09, 0x39, 0x4e, 0xa3, 0x89, 0xb9, 0x14, 0x22, 0x09,
  0x80, 0xe8, 0xd3, 0x09, 0xb8, 0x5d, 0xae, 0x08, 0x70, 0xd4, 0xf3, 0x89,
  0xb4, 0xf2, 0xc9, 0x09, 0xd1, 0x2b, 0x84, 0x88, 0xc1, 0x8b, 0xc6, 0x09,
  0xe1, 0x17, 0x61, 0x89, 0x83, 0x11, 0xcc, 0x87, 0x34, 0x0d, 0x12, 0x09,
  0xab, 0x33, 0xc4, 0x08, 0x46, 0xb1, 0xe4, 0x09, 0xc2, 0xf6, 0xff, 0xff,
  0x10, 0x00, 0x00, 0x00, 0x08, 0x00, 0x00, 0x00, 0x1c, 0x00, 0x00, 0x00,
  0x3c, 0x00, 0x00, 0x00, 0x04, 0x00, 0x00, 0x00, 0x04, 0x00, 0x00, 0x00,
  0x03, 0x00, 0x00, 0x00, 0x03, 0x00, 0x00, 0x00, 0x04, 0x00, 0x00, 0x00,
  0x1d, 0x00, 0x00, 0x00, 0x73, 0x65, 0x71, 0x75, 0x65, 0x6e, 0x74, 0x69,
  0x61, 0x6c, 0x2f, 0x63, 0x6f, 0x6e, 0x76, 0x5f, 0x6c, 0x61, 0x79, 0x65,
  0x72, 0x32, 0x2f, 0x43, 0x6f, 0x6e, 0x76, 0x32, 0x44, 0x00, 0x00, 0x00,
  0xbc, 0xf6, 0xff, 0xff, 0x86, 0xf7, 0xff, 0xff, 0x04, 0x00, 0x00, 0x00,
  0xb0, 0x01, 0x00, 0x00, 0x70, 0xa9, 0x80, 0x8a, 0x10, 0x73, 0x53, 0x8b,
  0x00, 0x00, 0x8b, 0x85, 0x11, 0xb6, 0x7d, 0x0c, 0x34, 0x4c, 0xaf, 0x8c,
  0xa0, 0xe7, 0xbf, 0x89, 0x9e, 0x71, 0xaa, 0x8c, 0x26, 0x26, 0xa5, 0x8c,
  0x9e, 0x71, 0xaa, 0x8c, 0x60, 0x73, 0x97, 0x09, 0xe0, 0x54, 0x4c, 0x0b,
  0xe0, 0xbf, 0xdb, 0x09, 0xcb, 0x3b, 0x15, 0x0c, 0x88, 0xd9, 0x27, 0x8b,
  0x38, 0xa6, 0x50, 0x0b, 0x30, 0x62, 0x7d, 0x8c, 0x00, 0x2b, 0x42, 0x8a,
  0x30, 0x62, 0x7d, 0x8c, 0xf4, 0xaa, 0x59, 0x0c, 0x40, 0x38, 0x59, 0x89,
  0x2f, 0x54, 0x73, 0x0c, 0x00, 0x9e, 0x5c, 0x09, 0xb1, 0x0a, 0x75, 0x0c,
  0x70, 0x36, 0x55, 0x8b, 0x50, 0xeb, 0x7d, 0x0c, 0x50, 0xeb, 0x7d, 0x0c,
  0x50, 0xeb, 0x7d, 0x0c, 0x80, 0x56, 0x61, 0x89, 0x20, 0x44, 0x9d, 0x09,
  0xe7, 0xa5, 0x0c, 0x8c, 0x48, 0xd5, 0x83, 0x8c, 0xc0, 0x3d, 0x54, 0x8a,
  0x68, 0xc2, 0x4d, 0x0b, 0x70, 0x8a, 0xfa, 0x0a, 0xc0, 0x18, 0xd6, 0x09,
  0x70, 0x8a, 0xfa, 0x0a, 0x65, 0x13, 0x39, 0x8c, 0x8a, 0x6c, 0x40, 0x8c,
  0xf1, 0x29, 0x2f, 0x0c, 0x7d, 0xe7, 0x0f, 0x8c, 0x50, 0x7b, 0x45, 0x8a,
  0x66, 0x7e, 0x11, 0x0c, 0x40, 0xfa, 0xae, 0x09, 0x62, 0x94, 0x84, 0x8c,
  0x40, 0xfa, 0xae, 0x09, 0xe6, 0xcb, 0x84, 0x0c, 0x00, 0x23, 0xf1, 0x88,
  0x20, 0x3c, 0x41, 0x8a, 0xef, 0x47, 0x25, 0x8c, 0x80, 0x67, 0x9d, 0x09,
  0x2e, 0xda, 0x8b, 0x8c, 0xc0, 0xb2, 0xbd, 0x89, 0xc0, 0xb2, 0xbd, 0x89,
  0xc0, 0xb2, 0xbd, 0x89, 0x00, 0xcf, 0xfc, 0x88, 0xd0, 0x68, 0x15, 0x8b,
  0x80, 0xd3, 0x03, 0x09, 0xe0, 0x5e, 0xbe, 0x89, 0x41, 0x64, 0x73, 0x0c,
  0xc0, 0xe9, 0x7e, 0x89, 0xa0, 0x92, 0x9b, 0x89, 0xb0, 0x35, 0x83, 0x8a,
  0xa0, 0x92, 0x9b, 0x89, 0x81, 0xee, 0x08, 0x8c, 0xbf, 0xd9, 0x06, 0x8c,
  0xf4, 0x58, 0x06, 0x8c, 0x36, 0x78, 0x03, 0x8c, 0x14, 0xcb, 0xa5, 0x8b,
  0x20, 0xbb, 0xc2, 0x09, 0xf4, 0xc1, 0xa6, 0x0b, 0xa2, 0xc5, 0x39, 0x0c,
  0xf4, 0xc1, 0xa6, 0x0b, 0xb4, 0x75, 0x5c, 0x8b, 0x80, 0x22, 0x09, 0x89,
  0x80, 0xe2, 0x5e, 0x09, 0x9b, 0x59, 0x28, 0x8c, 0x00, 0x9b, 0x38, 0x89,
  0x38, 0x7e, 0xf5, 0x8a, 0x80, 0xa9, 0x49, 0x09, 0x80, 0xa9, 0x49, 0x09,
  0x80, 0xa9, 0x49, 0x09, 0x8d, 0x0f, 0x30, 0x0c, 0x80, 0x2a, 0xd6, 0x09,
  0xe2, 0xb8, 0x09, 0x8c, 0xc4, 0x8e, 0x55, 0x0b, 0x7c, 0x35, 0x58, 0x0b,
  0xe0, 0xe1, 0xa0, 0x09, 0x08, 0xcd, 0x56, 0x0b, 0x40, 0xe1, 0x71, 0x09,
  0x08, 0xcd, 0x56, 0x0b, 0x40, 0x65, 0xef, 0x09, 0x41, 0x2d, 0x0d, 0x8c,
  0x98, 0xda, 0x5a, 0x8b, 0x85, 0x58, 0xb9, 0x8c, 0xb7, 0x3a, 0xa4, 0x0c,
  0xe0, 0xbc, 0xc0, 0x09, 0x32, 0xb4, 0x36, 0x0c, 0x80, 0x37, 0xc6, 0x89,
  0x32, 0xb4, 0x36, 0x0c, 0x11, 0xb6, 0x7d, 0x8c, 0x00, 0xce, 0xe2, 0x89,
  0x00, 0x75, 0xc4, 0x89, 0xc0, 0x47, 0xae, 0x8a, 0x4e, 0xf4, 0x9e, 0x0b,
  0x80, 0xcb, 0x60, 0x09, 0x00, 0x93, 0xa3, 0x88, 0x00, 0x93, 0xa3, 0x88,
  0x00, 0x93, 0xa3, 0x88, 0xce, 0xf8, 0xff, 0xff, 0x10, 0x00, 0x00, 0x00,
  0x07, 0x00, 0x00, 0x00, 0x1c, 0x00, 0x00, 0x00, 0x3c, 0x00, 0x00, 0x00,
  0x04, 0x00, 0x00, 0x00, 0x04, 0x00, 0x00, 0x00, 0x03, 0x00, 0x00, 0x00,
  0x03, 0x00, 0x00, 0x00, 0x03, 0x00, 0x00, 0x00, 0x1d, 0x00, 0x00, 0x00,
  0x73, 0x65, 0x71, 0x75, 0x65, 0x6e, 0x74, 0x69, 0x61, 0x6c, 0x2f, 0x63,
  0x6f, 0x6e, 0x76, 0x5f, 0x6c, 0x61, 0x79, 0x65, 0x72, 0x31, 0x2f, 0x43,
  0x6f, 0x6e, 0x76, 0x32, 0x44, 0x00, 0x00, 0x00, 0xc8, 0xf8, 0xff, 0xff,
  0x92, 0xf9, 0xff, 0xff, 0x04, 0x00, 0x00, 0x00, 0xe0, 0x01, 0x00, 0x00,
  0xc4, 0xa4, 0xd8, 0x09, 0xd5, 0x40, 0x0e, 0x89, 0x48, 0x5b, 0x0d, 0x89,
  0x94, 0x6b, 0x26, 0x09, 0x04, 0xd0, 0x29, 0x09, 0xb2, 0xf2, 0x52, 0x09,
  0xfd, 0x2a, 0xb5, 0x09, 0x80, 0x8e, 0x05, 0x86, 0x5f, 0xb0, 0xe1, 0x89,
  0x8c, 0x75, 0x40, 0x88, 0x38, 0x94, 0xa9, 0x87, 0x21, 0x40, 0xb1, 0x09,
  0x34, 0xf4, 0x93, 0x89, 0x16, 0x28, 0xb9, 0x88, 0x9c, 0x9b, 0x56, 0x09,
  0x4d, 0x8a, 0x54, 0x09, 0x4e, 0xae, 0xa2, 0x09, 0x0e, 0x23, 0x93, 0x89,
  0x30, 0x99, 0x12, 0x09, 0xe8, 0x71, 0x8e, 0x88, 0xf1, 0x59, 0x56, 0x08,
  0x06, 0x14, 0x72, 0x89, 0x86, 0x52, 0x1c, 0x09, 0xd2, 0x4c, 0x87, 0x89,
  0xe7, 0xa9, 0x93, 0x09, 0xf7, 0x47, 0x94, 0x89, 0x82, 0x08, 0x87, 0x89,
  0xd3, 0xed, 0xaf, 0x88, 0x1f, 0x01, 0x71, 0x89, 0x96, 0xb1, 0xcb, 0x89,
  0x3d, 0xbd, 0x92, 0x09, 0xec, 0xd2, 0x6a, 0x89, 0x26, 0x5a, 0x0f, 0x89,
  0xd8, 0x4d, 0xac, 0x88, 0x90, 0xf1, 0x1f, 0x09, 0xbe, 0x2b, 0xbe, 0x88,
  0x5e, 0xe0, 0x8e, 0x89, 0xec, 0xc9, 0xcf, 0x09, 0xd9, 0x6c, 0xb1, 0x09,
  0xba, 0x28, 0x55, 0x09, 0x88, 0x2e, 0xcc, 0x88, 0xea, 0xb5, 0x6a, 0x89,
  0x3c, 0xe7, 0xca, 0x09, 0xee, 0x02, 0xa5, 0x09, 0xa9, 0x74, 0x4c, 0x09,
  0x38, 0x42, 0xba, 0x08, 0x77, 0x07, 0x12, 0x09, 0x11, 0xf2, 0x50, 0x09,
  0xc7, 0xf9, 0x94, 0x09, 0x80, 0xfb, 0x22, 0x08, 0xf5, 0x04, 0xba, 0x89,
  0x55, 0x45, 0xb6, 0x89, 0x04, 0xbe, 0xa4, 0x89, 0xcf, 0x7f, 0x46, 0x09,
  0x74, 0x40, 0x92, 0x87, 0x21, 0x09, 0xee, 0x88, 0xbd, 0x48, 0x8d, 0x89,
  0x00, 0xc4, 0x9e, 0x88, 0xaf, 0x50, 0xda, 0x88, 0xe6, 0x30, 0xc9, 0x89,
  0xf5, 0x8d, 0x40, 0x09, 0xce, 0x3e, 0xf0, 0x09, 0xd6, 0x7d, 0x90, 0x09,
  0x8c, 0x3a, 0xcb, 0x88, 0x7c, 0xcd, 0x03, 0x89, 0xbe, 0x7c, 0x34, 0x09,
  0x59, 0x05, 0xe7, 0x09, 0x53, 0x7c, 0x40, 0x09, 0xfb, 0xfb, 0x37, 0x09,
  0x8e, 0x52, 0x12, 0x08, 0x26, 0x55, 0x90, 0x08, 0x7c, 0x6a, 0xa4, 0x89,
  0x30, 0x0c, 0x9c, 0x09, 0x06, 0x96, 0xd2, 0x08, 0x0d, 0x68, 0x38, 0x09,
  0x3a, 0x21, 0xca, 0x09, 0x0f, 0x45, 0x61, 0x89, 0x2b, 0xe1, 0x42, 0x09,
  0x24, 0xd9, 0xb1, 0x89, 0x57, 0x4a, 0x48, 0x09, 0xc4, 0x56, 0xd9, 0x09,
  0xf4, 0x00, 0x5f, 0x09, 0x23, 0x0d, 0x86, 0x09, 0xf8, 0x40, 0x28, 0x09,
  0x7e, 0x90, 0xb0, 0x09, 0x2a, 0x86, 0xd3, 0x09, 0x85, 0xa9, 0x3d, 0x09,
  0xc0, 0x9f, 0x05, 0x86, 0xcd, 0x0e, 0x17, 0x89, 0xc0, 0x09, 0xeb, 0x88,
  0xc8, 0xb9, 0xab, 0x87, 0xac, 0xb7, 0x52, 0x89, 0xa4, 0x06, 0x7f, 0x88,
  0x80, 0xf9, 0x54, 0x09, 0x9c, 0x9b, 0x56, 0x09, 0xb8, 0x57, 0x07, 0x09,
  0x3d, 0xf6, 0xb7, 0x09, 0x38, 0x26, 0x93, 0x89, 0xd8, 0x38, 0x80, 0x89,
  0x64, 0xfb, 0x9b, 0x88, 0xdd, 0x9e, 0xc8, 0x89, 0x1e, 0x29, 0x72, 0x89,
  0x65, 0xcf, 0x77, 0x09, 0x64, 0xc9, 0x45, 0x89, 0xe7, 0xa9, 0x93, 0x09,
  0x1c, 0x99, 0x74, 0x88, 0xf2, 0xf0, 0x87, 0x89, 0x08, 0x22, 0x66, 0x09,
  0xb5, 0x92, 0x3e, 0x88, 0x31, 0xfb, 0xd5, 0x89, 0x3d, 0xbd, 0x92, 0x09,
  0x6e, 0x51, 0x1e, 0x89, 0xbf, 0xe5, 0xaa, 0x08, 0xd8, 0x4d, 0xac, 0x88,
  0xa9, 0x40, 0x95, 0x09, 0x8e, 0xd7, 0xbc, 0x88, 0x9f, 0x4a, 0xd8, 0x89,
  0xcd, 0xdc, 0xcf, 0x09, 0xd9, 0x6c, 0xb1, 0x09, 0xba, 0x28, 0x55, 0x09,
  0x0a, 0xfb, 0xff, 0xff, 0x10, 0x00, 0x00, 0x00, 0x06, 0x00, 0x00, 0x00,
  0x14, 0x00, 0x00, 0x00, 0x30, 0x00, 0x00, 0x00, 0x02, 0x00, 0x00, 0x00,
  0x03, 0x00, 0x00, 0x00, 0x28, 0x00, 0x00, 0x00, 0x18, 0x00, 0x00, 0x00,
  0x73, 0x65, 0x71, 0x75, 0x65, 0x6e, 0x74, 0x69, 0x61, 0x6c, 0x2f, 0x6f,
  0x75, 0x74, 0x70, 0x75, 0x74, 0x2f, 0x4d, 0x61, 0x74, 0x4d, 0x75, 0x6c,
  0x00, 0x00, 0x00, 0x00, 0xf8, 0xfa, 0xff, 0xff, 0xc2, 0xfb, 0xff, 0xff,
  0x04, 0x00, 0x00, 0x00, 0x80, 0x02, 0x00, 0x00, 0x20, 0x01, 0x7a, 0x09,
  0x40, 0xb5, 0xd7, 0x07, 0xec, 0xe5, 0x3e, 0x87, 0xee, 0x71, 0x4d, 0x89,
  0x6a, 0x33, 0x3d, 0x89, 0xa4, 0x2e, 0x5b, 0x09, 0xf7, 0x44, 0x26, 0x09,
  0x28, 0xf1, 0x94, 0x89, 0x42, 0x62, 0xb9, 0x89, 0xdf, 0x3a, 0x91, 0x07,
  0x13, 0x62, 0x0d, 0x09, 0x93, 0xd5, 0x8e, 0x09, 0xf0, 0x88, 0xe3, 0x09,
  0xc4, 0x7a, 0xb9, 0x88, 0xf9, 0xb1, 0x26, 0x87, 0x74, 0x83, 0xe6, 0x08,
  0x82, 0x70, 0x4c, 0x89, 0x4e, 0x89, 0x51, 0x89, 0xea, 0x94, 0x61, 0x88,
  0x43, 0x3d, 0x06, 0x08, 0xe0, 0xcc, 0xa2, 0x04, 0x3f, 0xed, 0x78, 0x89,
  0xa3, 0x8b, 0xec, 0x09, 0xda, 0x8e, 0x63, 0x09, 0x90, 0xfe, 0x87, 0x89,
  0xf9, 0x23, 0xe7, 0x89, 0xb1, 0x58, 0xdd, 0x09, 0x25, 0x6d, 0xb0, 0x08,
  0x00, 0x50, 0xee, 0x08, 0x0c, 0x7c, 0xc7, 0x09, 0xa6, 0xb5, 0x0a, 0x89,
  0xb8, 0x55, 0x31, 0x87, 0x74, 0x87, 0xa6, 0x89, 0x5e, 0xb5, 0x9d, 0x88,
  0xab, 0x16, 0x68, 0x89, 0x60, 0x90, 0x65, 0x88, 0xd2, 0x65, 0x14, 0x09,
  0xe0, 0x55, 0x26, 0x09, 0xca, 0x0e, 0xa0, 0x08, 0x0f, 0xa1, 0xe4, 0x89,
  0x80, 0x21, 0x30, 0x08, 0x0a, 0x4a, 0x16, 0x09, 0x5f, 0x4e, 0xd5, 0x07,
  0x28, 0xd8, 0x8a, 0x89, 0x02, 0xfa, 0x79, 0x07, 0x6f, 0x70, 0x43, 0x09,
  0x35, 0x25, 0xcf, 0x09, 0x7e, 0xa4, 0xab, 0x88, 0x4a, 0x8a, 0xdf, 0x09,
  0x84, 0xa4, 0xf7, 0x88, 0xe0, 0xac, 0xbb, 0x09, 0x55, 0x4d, 0xb2, 0x09,
  0xd6, 0xea, 0x3e, 0x89, 0x6c, 0xdb, 0x48, 0x89, 0x02, 0xa3, 0x91, 0x89,
  0xd5, 0xac, 0x36, 0x09, 0xe0, 0xc4, 0x1e, 0x89, 0xaf, 0x2d, 0x98, 0x89,
  0x64, 0x97, 0x94, 0x08, 0x8c, 0x6c, 0x52, 0x09, 0xdb, 0xb8, 0x9b, 0x89,
  0xa6, 0xef, 0x04, 0x89, 0xbc, 0x3c, 0xc2, 0x88, 0x4a, 0x65, 0x4b, 0x09,
  0xd0, 0x9a, 0xf2, 0x89, 0x30, 0x9f, 0xb4, 0x09, 0x40, 0x50, 0xbf, 0x89,
  0x80, 0xaf, 0x2f, 0x87, 0xc0, 0x32, 0xd9, 0x09, 0x69, 0x26, 0xe5, 0x09,
  0xf8, 0xdb, 0xce, 0x89, 0x71, 0x2b, 0xd6, 0x09, 0x5f, 0x8d, 0x9e, 0x89,
  0x8b, 0x9d, 0xeb, 0x09, 0xcc, 0xd2, 0x15, 0x08, 0x9a, 0xf4, 0x92, 0x09,
  0x20, 0x29, 0xab, 0x89, 0x92, 0x79, 0xa8, 0x09, 0x88, 0x0a, 0xde, 0x88,
  0xec, 0x34, 0x3a, 0x09, 0x4f, 0xbf, 0x48, 0x89, 0xd9, 0xb4, 0x3c, 0x89,
  0x1d, 0xf4, 0x39, 0x89, 0x31, 0xc7, 0xc1, 0x89, 0x40, 0x93, 0x0f, 0x09,
  0x20, 0x01, 0x21, 0x08, 0x66, 0x75, 0xa2, 0x86, 0x4c, 0x59, 0x4a, 0x08,
  0xc6, 0x10, 0x46, 0x09, 0xa2, 0x6b, 0x3a, 0x88, 0xb5, 0x80, 0xc5, 0x89,
  0x00, 0x80, 0x2e, 0x87, 0x2b, 0x6e, 0xbe, 0x89, 0xc2, 0x11, 0x47, 0x88,
  0x5c, 0x40, 0x32, 0x09, 0x4b, 0x0f, 0xbb, 0x89, 0x00, 0x2a, 0xb4, 0x89,
  0x50, 0xa4, 0x02, 0x08, 0x33, 0x84, 0xee, 0x87, 0x2c, 0x8e, 0x9f, 0x89,
  0x39, 0x43, 0x3b, 0x89, 0x45, 0x68, 0xd2, 0x09, 0x3a, 0x96, 0xde, 0x08,
  0x91, 0x97, 0xd7, 0x88, 0x10, 0x88, 0xb0, 0x09, 0x76, 0xd1, 0xe7, 0x87,
  0xf8, 0x2a, 0x15, 0x87, 0x4e, 0x16, 0x99, 0x09, 0x6c, 0xba, 0x37, 0x89,
  0x0a, 0x47, 0x45, 0x89, 0x22, 0x58, 0x41, 0x89, 0xba, 0xe9, 0x14, 0x09,
  0x2b, 0xdb, 0x1a, 0x89, 0xf1, 0x98, 0x42, 0x89, 0xb1, 0x59, 0x4a, 0x89,
  0x7c, 0x50, 0x49, 0x89, 0xc0, 0x7e, 0x82, 0x09, 0x3a, 0x05, 0x79, 0x88,
  0x98, 0x86, 0x87, 0x87, 0x97, 0x21, 0x9d, 0x09, 0xf0, 0xf4, 0xc2, 0x09,
  0xfc, 0x5d, 0x06, 0x89, 0xf2, 0x42, 0x94, 0x87, 0x05, 0x3a, 0xa3, 0x89,
  0x83, 0xbe, 0xbd, 0x89, 0x78, 0x5b, 0xff, 0x07, 0x12, 0x17, 0x03, 0x09,
  0x94, 0x19, 0xb4, 0x89, 0xe8, 0x95, 0x85, 0x89, 0x09, 0x4e, 0x4f, 0x89,
  0x0a, 0x93, 0x55, 0x87, 0x49, 0x62, 0x83, 0x88, 0x00, 0xf1, 0x26, 0x09,
  0x87, 0x15, 0x99, 0x89, 0x37, 0xf0, 0xeb, 0x07, 0x4a, 0xef, 0xc1, 0x89,
  0x70, 0xae, 0x06, 0x08, 0xc0, 0x82, 0x1a, 0x09, 0x0c, 0x22, 0x9a, 0x88,
  0x64, 0xa5, 0xf0, 0x88, 0x40, 0x20, 0x1d, 0x89, 0x81, 0xf7, 0x3f, 0x08,
  0xfe, 0x43, 0x82, 0x88, 0xe5, 0x3b, 0xcd, 0x09, 0x4f, 0x9a, 0x3f, 0x89,
  0xa0, 0x88, 0x4d, 0x09, 0x4e, 0x71, 0xee, 0x09, 0x84, 0x18, 0xac, 0x08,
  0xc0, 0xee, 0xb3, 0x09, 0x9c, 0xda, 0x13, 0x09, 0x6a, 0x09, 0xcb, 0x86,
  0x74, 0x27, 0xb7, 0x09, 0x00, 0x68, 0xde, 0x07, 0x00, 0xa8, 0xef, 0x07,
  0xd4, 0x39, 0x8e, 0x88, 0x7f, 0x84, 0x06, 0x88, 0xe0, 0xf1, 0x84, 0x89,
  0xc0, 0xb8, 0x19, 0x07, 0x9e, 0xf3, 0xc8, 0x89, 0x11, 0xc3, 0x99, 0x09,
  0xda, 0xfd, 0xff, 0xff, 0x10, 0x00, 0x00, 0x00, 0x05, 0x00, 0x00, 0x00,
  0x14, 0x00, 0x00, 0x00, 0x34, 0x00, 0x00, 0x00, 0x02, 0x00, 0x00, 0x00,
  0x28, 0x00, 0x00, 0x00, 0x04, 0x00, 0x00, 0x00, 0x1f, 0x00, 0x00, 0x00,
  0x73, 0x65, 0x71, 0x75, 0x65, 0x6e, 0x74, 0x69, 0x61, 0x6c, 0x2f, 0x68,
  0x69, 0x64, 0x64, 0x65, 0x6e, 0x5f, 0x6c, 0x61, 0x79, 0x65, 0x72, 0x31,
  0x2f, 0x4d, 0x61, 0x74, 0x4d, 0x75, 0x6c, 0x00, 0xcc, 0xfd, 0xff, 0xff,
  0x96, 0xfe, 0xff, 0xff, 0x04, 0x00, 0x00, 0x00, 0x0c, 0x00, 0x00, 0x00,
  0x71, 0xaa, 0x59, 0x40, 0x5b, 0x17, 0x05, 0x40, 0x71, 0xaa, 0x59, 0x40,
  0x3a, 0xfe, 0xff, 0xff, 0x10, 0x00, 0x00, 0x00, 0x04, 0x00, 0x00, 0x00,
  0x10, 0x00, 0x00, 0x00, 0x3c, 0x00, 0x00, 0x00, 0x01, 0x00, 0x00, 0x00,
  0x03, 0x00, 0x00, 0x00, 0x28, 0x00, 0x00, 0x00, 0x73, 0x65, 0x71, 0x75,
  0x65, 0x6e, 0x74, 0x69, 0x61, 0x6c, 0x2f, 0x6f, 0x75, 0x74, 0x70, 0x75,
  0x74, 0x2f, 0x42, 0x69, 0x61, 0x73, 0x41, 0x64, 0x64, 0x2f, 0x52, 0x65,
  0x61, 0x64, 0x56, 0x61, 0x72, 0x69, 0x61, 0x62, 0x6c, 0x65, 0x4f, 0x70,
  0x00, 0x00, 0x00, 0x00, 0x34, 0xfe, 0xff, 0xff, 0xfe, 0xfe, 0xff, 0xff,
  0x04, 0x00, 0x00, 0x00, 0xa0, 0x00, 0x00, 0x00, 0x2a, 0x55, 0xf6, 0xb4,
  0x53, 0x39, 0xcc, 0xbd, 0xef, 0x91, 0xa8, 0xba, 0x23, 0xcd, 0xad, 0xaf,
  0xb6, 0xdf, 0xc2, 0xbc, 0x3a, 0xf3, 0xaa, 0xbc, 0xdb, 0xcc, 0x8f, 0xbc,
  0x7c, 0xba, 0xa4, 0xb4, 0xc8, 0xb4, 0x08, 0xb8, 0x6d, 0xac, 0x40, 0xba,
  0x07, 0xf5, 0xfc, 0xb0, 0x33, 0xae, 0xa6, 0xbc, 0xb4, 0x90, 0xe9, 0xbb,
  0x2b, 0xd3, 0x81, 0xbc, 0x64, 0x86, 0x31, 0xb8, 0x60, 0xe0, 0x02, 0xbd,
  0xe6, 0x3b, 0x94, 0xb6, 0x1f, 0x80, 0xae, 0xb3, 0xdd, 0xa8, 0x1d, 0xbc,
  0x5b, 0xbf, 0x5c, 0xb2, 0x99, 0x2d, 0x37, 0xbd, 0x02, 0x23, 0x90, 0xb1,
  0x5b, 0x26, 0xe3, 0xb5, 0xb7, 0xd2, 0x9c, 0xbb, 0x5b, 0x6f, 0x90, 0xb6,
  0x68, 0xa8, 0x03, 0xbd, 0xd9, 0x43, 0xc8, 0xaf, 0x49, 0x41, 0xb2, 0xbc,
  0xbd, 0xbb, 0x89, 0xbc, 0xc9, 0xd3, 0x22, 0xb0, 0x1d, 0x9c, 0x54, 0xb6,
  0x3a, 0x18, 0x5d, 0xba, 0x89, 0x5a, 0x10, 0xbc, 0x39, 0xb3, 0xf1, 0xb7,
  0x92, 0x9c, 0x80, 0xbc, 0x76, 0xf6, 0x05, 0xac, 0x59, 0x23, 0x28, 0xbd,
  0xed, 0x27, 0x7d, 0xb5, 0x21, 0xdb, 0x4e, 0xb2, 0x32, 0xae, 0x07, 0xb5,
  0x36, 0xff, 0xff, 0xff, 0x10, 0x00, 0x00, 0x00, 0x03, 0x00, 0x00, 0x00,
  0x10, 0x00, 0x00, 0x00, 0x40, 0x00, 0x00, 0x00, 0x01, 0x00, 0x00, 0x00,
  0x28, 0x00, 0x00, 0x00, 0x2f, 0x00, 0x00, 0x00, 0x73, 0x65, 0x71, 0x75,
  0x65, 0x6e, 0x74, 0x69, 0x61, 0x6c, 0x2f, 0x68, 0x69, 0x64, 0x64, 0x65,
  0x6e, 0x5f, 0x6c, 0x61, 0x79, 0x65, 0x72, 0x31, 0x2f, 0x42, 0x69, 0x61,
  0x73, 0x41, 0x64, 0x64, 0x2f, 0x52, 0x65, 0x61, 0x64, 0x56, 0x61, 0x72,
  0x69, 0x61, 0x62, 0x6c, 0x65, 0x4f, 0x70, 0x00, 0x90, 0xff, 0xff, 0xff,
  0x00, 0x00, 0x06, 0x00, 0x08, 0x00, 0x04, 0x00, 0x06, 0x00, 0x00, 0x00,
  0x04, 0x00, 0x00, 0x00, 0x08, 0x00, 0x00, 0x00, 0xff, 0xff, 0xff, 0xff,
  0x04, 0x00, 0x00, 0x00, 0x00, 0x00, 0x0e, 0x00, 0x18, 0x00, 0x08, 0x00,
  0x07, 0x00, 0x0c, 0x00, 0x10, 0x00, 0x14, 0x00, 0x0e, 0x00, 0x00, 0x00,
  0x00, 0x00, 0x00, 0x02, 0x10, 0x00, 0x00, 0x00, 0x02, 0x00, 0x00, 0x00,
  0x10, 0x00, 0x00, 0x00, 0x30, 0x00, 0x00, 0x00, 0x01, 0x00, 0x00, 0x00,
  0x02, 0x00, 0x00, 0x00, 0x18, 0x00, 0x00, 0x00, 0x73, 0x65, 0x71, 0x75,
  0x65, 0x6e, 0x74, 0x69, 0x61, 0x6c, 0x2f, 0x66, 0x6c, 0x61, 0x74, 0x74,
  0x65, 0x6e, 0x2f, 0x43, 0x6f, 0x6e, 0x73, 0x74, 0x00, 0x00, 0x00, 0x00,
  0x04, 0x00, 0x06, 0x00, 0x04, 0x00, 0x00, 0x00, 0x00, 0x00, 0x0e, 0x00,
  0x14, 0x00, 0x04, 0x00, 0x00, 0x00, 0x08, 0x00, 0x0c, 0x00, 0x10, 0x00,
  0x0e, 0x00, 0x00, 0x00, 0x10, 0x00, 0x00, 0x00, 0x01, 0x00, 0x00, 0x00,
  0x1c, 0x00, 0x00, 0x00, 0x30, 0x00, 0x00, 0x00, 0x04, 0x00, 0x00, 0x00,
  0x01, 0x00, 0x00, 0x00, 0x02, 0x00, 0x00, 0x00, 0x02, 0x00, 0x00, 0x00,
  0x03, 0x00, 0x00, 0x00, 0x11, 0x00, 0x00, 0x00, 0x63, 0x6f, 0x6e, 0x76,
  0x5f, 0x6c, 0x61, 0x79, 0x65, 0x72, 0x31, 0x5f, 0x69, 0x6e, 0x70, 0x75,
  0x74, 0x00, 0x00, 0x00, 0xfc, 0xff, 0xff, 0xff, 0x04, 0x00, 0x04, 0x00,
  0x04, 0x00, 0x00, 0x00
};
unsigned int converted_model_tflite_len = 4684;
